FD030000
050800F5
06F50203
FD06F701
0005FA01
0A0DF9F9
03FA04FD
FE03F2FA
FA01F6FF
0915F7F7
01000500
03FCF5FE
FB0CFDFD
0509F8F6
FAFC03F9
FC11FDFB
0109F9F9
0610F6FB
F60E05FA
F806FDF9
F807FFF3
1A070802
F006FBFE
0801F9FA
FC0001FB
0E0509FD
FA04FB04
0002FEFF
F70201FA
160106F3
F40CFC09
08FD01F9
FCFBFD05
180202FC
F1070101
FA000002
04F804FF
00FFFF07
FAFC0100
F107FB05
FEFC05FC
FD03030B
FAF702FE
F506FD03
02FF0201
FE00FD00
F7F904FF
FB050003
05FEFD04
FEFF0102
F0F206FE
FB090604
02010B12
F90102FD
F3F303F9
FD040202
03FFFF0B
FAFF0102
F3F605FE
FD070803
FFFCFF02
05FCFFFF
F5FA0503
F8040502
F50BF7F9
01051202
EBFBFEFF
010403F8
FD0EF604
0803F909
E2F8FB07
F9030404
F80F03FF
04FF0202
F4FDFEFF
040007FE
FA02FE02
0701FFFB
F8F80203
01FF0501
0105FC08
07F4FF06
FDFBFF0C
ECFA06FF
04FF07FF
FEF8FAFD
03FB0301
FFFC0302
FD070505
06FAFFFE
F60AFB07
03FA00F5
FC040A04
05FCF4FC
FCFEFE03
09F908FD
00040B03
06FEF601
00F602FC
03FA0004
12FB030C
0AF4F8FD
04040108
09EC04FD
0905FB02
F4FAF913
030701FA
05FB000A
FC0EFE0B
F5FDF408
FF0DF204
0BFCF704
FDFE02F8
F6F90102
0805F709
0905FB04
06F3F4F4
F9FE0CFA
07040208
03010206
1308FAF8
07F70503
F1FEF70D
FFF7F909
F0FF08FE
ED0F180E
0D050BFF
F5F004FA
FFEF031B
F7090408
0DFB01F8
E1F318FB
F207F614
E90DFEEF
FB1605FB
F9ED1AF8
FA10FC01
F0FE01FF
18190105
07E9FFF0
0DFFF904
F60E0408
01F802F1
FD06FEF7
FFF8FB01
F80708F0
0804F3FF
130308F8
0700FAFE
030207F8
001201FB
00FCF9FF
04F9F5F6
ECFE1704
040701FE
0411FE07
F5FF05E9
FD05F9FC
0EFF0801
02FEFA0A
F90A09EF
08FF0001
FCFEFEF8
15FDFC01
0CFEF8FE
17FBF801
E80303F8
090CF9FA
04010203
09F402F7
F8040202
FF05F302
0EFB01F9
10F0FAF6
FCFF0403
0004FE00
EEF91602
00FBFCFF
0CF1FF05
F8FB070A
01F91001
0EFBFE01
0B05FDFD
FBF7FE0C
0AFE1B02
0AFA0AF4
0308FEF0
F2F800FE
F5080906
FEFAEC13
08FBFFFC
F6040005
F8040B04
00FBEF11
09FA01F9
FAFEFF09
04FE0307
040AE308
010606F6
F4FEF903
03010B0B
04F4F8FF
06FAFC05
04FFFBFF
0BFB0F00
03F8FDFD
0804FB09
01F9F9FD
FE0400F1
05F0F71A
17FEFC05
03FFFBFA
07041201
00F9FB0A
0802F902
FFFDF6FE
00FDFA0D
01F4000E
FAF8000C
F305FF00
09000002
06F2F201
08F7FD07
05040400
06F409F9
03FD000C
11F9F807
FDFDFFFA
FFF8FF09
07F8FB05
FEF50109
F2040804
03FDFD01
07F9FC0A
0DEEFB02
FE000600
08FBFFFD
0301FB0F
09EDF600
04010003
0DFDFD03
0600F810
04F0F401
FE020102
06F6F707
0A000308
06F6F303
FD010008
0502000F
07FDFD04
FDF5F806
FA000403
FE010305
0DFD010B
F9F0F907
F6FD0CFC
FE06FB05
0F00FD01
F8FAFB0B
F4FA0308
010CFEF9
09FD050C
FE07FE06
FBE9FAFF
00000000
00000000
00000000
00000000
00000000
00000000
00000000
00000000
00000000
00000000
00000000
00000000
00000000
00000000
00000000
00000000
00000000
00000000
00000000
00000000
00000000
00000000
00000000
00000000
00000000
00000000
00000000
00000000
00000000
00000000
00000000
00000000
00000000
00000000
00000000
00000000
00000000
00000000
00000000
00000000
00000000
00000000
00000000
00000000
00000000
00000000
00000000
00000000
00000000
00000000
00000000
00000000
00000000
00000000
00000000
00000000
00000000
00000000
00000000
00000000
00000000
00000000
00000000
00000000
00000000
00000000
00000000
00000000
00000000
00000000
00000000
00000000
00000000
00000000
00000000
00000000
00000000
00000000
00000000
00000000
00000000
00000000
00000000
00000000
00000000
00000000
00000000
00000000
00000000
00000000
00000000
00000000
00000000
00000000
00000000
00000000
00000000
00000000
00000000
00000000
00000000
00000000
00000000
00000000
00000000
00000000
00000000
00000000
00000000
00000000
00000000
00000000
00000000
00000000
00000000
00000000
00000000
00000000
00000000
00000000
00000000
00000000
00000000
00000000
00000000
00000000
00000000
00000000
00000000
00000000
00000000
00000000
00000000
00000000
00000000
00000000
00000000
00000000
00000000
00000000
00000000
00000000
00000000
00000000
00000000
00000000
00000000
00000000
00000000
00000000
00000000
00000000
00000000
00000000
00000000
00000000
00000000
00000000
00000000
00000000
00000000
00000000
00000000
00000000
00000000
00000000
00000000
00000000
00000000
00000000
00000000
00000000
00000000
00000000
00000000
00000000
00000000
00000000
00000000
00000000
00000000
00000000
00000000
00000000
00000000
00000000
00000000
00000000
00000000
00000000
00000000
00000000
00000000
00000000
00000000
00000000
00000000
00000000
00000000
00000000
00000000
00000000
00000000
00000000
00000000
00000000
00000000
00000000
00000000
00000000
00000000
00000000
00000000
00000000
00000000
00000000
00000000
00000000
00000000
00000000
00000000
00000000
00000000
00000000
00000000
00000000
00000000
00000000
00000000
00000000
00000000
00000000
00000000
00000000
00000000
00000000
00000000
00000000
00000000
00000000
00000000
00000000
00000000
00000000
00000000
00000000
00000000
00000000
00B7B871
00000000
00000000
00000000
0099ED57
00000000
00000000
00000000
00310B8A
00000000
00000000
00000000
00101680
00000000
00000000
00000000
007EC096
00000000
00000000
00000000
0063CFA9
00000000
00000000
00000000
00A1809E
00000000
00000000
00000000
00A52449
00000000
00000000
00000000
0059E19A
00000000
00000000
00000000
00773880
00000000
00000000
00000000
00803C30
00000000
00000000
00000000
00E57FB8
00000000
00000000
00000000
00802352
00000000
00000000
00000000
00989079
00000000
00000000
00000000
007F04BE
00000000
00000000
00000000
0080187F
00000000
00000000
00000000
FFFFFFA8
0000003A
FFFFFF8F
00000081
FFFFFFED
000000EB
FFFFFDE7
00000124
FFFFFFF9
FFFFFF71
00000040
FFFFFFAE
FFFFFFBA
FFFFFFBC
00000144
FFFFFFC8
00000000
00000000
00000000
00000000
00000000
00000000
00000000
00000000
00000000
00000000
00000000
00000000
00000000
00000000
00000000
00000000
00000000
00000000
00000000
00000000
00000000
00000000
00000000
00000000
00000000
00000000
00000000
00000000
00000000
00000000
00000000
00000000
00000000
00000000
00000000
00000000
00000000
00000000
00000000
00000000
00000000
00000000
00000000
00000000
00000000
00000000
00000000
00000000
00000000
00000000
00000000
00000000
00000000
00000000
00000000
00000000
00000000
00000000
00000000
00000000
00000000
00000000
00000000
00000000
00000000
00000000
00000000
00000000
00000000
00000000
00000000
00000000
00000000
00000000
00000000
00000000
00000000
00000000
00000000
00000000
00000000
00000000
00000000
00000000
00000000
00000000
00000000
00000000
00000000
00000000
00000000
00000000
00000000
00000000
00000000
00000000
00000000
00000000
00000000
00000000
00000000
00000000
00000000
00000000
00000000
00000000
00000000
00000000
00000000
00000000
00000000
00000000
00000000
00000000
00000000
00000000
00000000
00000000
00000000
00000000
00000000
00000000
00000000
00000000
00000000
00000000
00000000
00000000
00000000
00000000
00000000
00000000
00000000
00000000
00000000
00000000
00000000
00000000
00000000
00000000
00000000
00000000
00000000
00000000
00000000
00000000
00000000
00000000
00000000
00000000
00000000
00000000
00000000
00000000
00000000
00000000
00000000
00000000
00000000
00000000
00000000
00000000
00000000
00000000
00000000
00000000
00000000
00000000
00000000
00000000
00000000
00000000
00000000
00000000
00000000
00000000
DCFB2216
65D022E8
E31101F6
232FE8FA
BBDFFDFC
F8C84918
D55E1A9D
21270CC7
F9B31142
FBD36339
18F7E0E3
5428F63A
F92F14EE
67DBFF07
D7FC921D
F0CD0B32
80074F48
BECAEBBF
987F7F80
C07FEC06
F39780D8
9B3DCAF2
7F33E6D9
5453F93D
22399A11
EB2120CF
E8F8652D
B63DDAB3
06E314F9
F6538FCE
62D81EEE
CBDEC3F1
29800E90
6FBE6949
EBF597A4
3A2B8074
907F6943
1FC49F37
D31C1001
C4B277E1
F5FBF3FA
1AEDF706
D51BD7F0
04DF035F
407F1A4D
C21FC45B
CD850755
CAC220DC
5B0A0904
CFDEF76D
79DED47F
68C6E97F
FBF99E2D
9B420FA6
551D46FC
F14103F6
FFDBB6E4
F62B1BC2
352D75DC
023BB5CC
C9F5107F
B8C507AD
791462FF
3E0F7DA8
00000454
FFFFFE1C
00000470
00000A14
000005D2
FFFFF5C4
FFFFFD71
FFFFFA62
00000C76
00000904
00000193
FFFFFF57
FFFFF4F2
FFFFF7E1
FFFFFF26
FFFFF46D
00000000
00000000
00000000
00000000
00000000
00000000
00000000
00000000
00000000
00000000
00000000
00000000
00000000
00000000
00000000
00000000
00000000
00000000
00000000
00000000
00000000
00000000
00000000
00000000
00000000
00000000
00000000
00000000
00000000
00000000
00000000
00000000
00000000
00000000
00000000
00000000
00000000
00000000
00000000
00000000
00000000
00000000
00000000
00000000
00000000
00000000
00000000
00000000
00000000
00000000
00000000
00000000
00000000
00000000
00000000
00000000
00000000
00000000
00000000
00000000
00000000
00000000
00000000
00000000
00000000
00000000
00000000
00000000
00000000
00000000
00000000
00000000
00000000
00000000
00000000
00000000
00000000
00000000
00000000
00000000
00000000
00000000
00000000
00000000
00000000
00000000
00000000
00000000
00000000
00000000
00000000
00000000
00000000
00000000
00000000
00000000
00000000
00000000
00000000
00000000
00000000
00000000
00000000
00000000
00000000
00000000
00000000
00000000
00000000
00000000
00000000
00000000
00000000
00000000
00000000
00000000
00000000
00000000
00000000
00000000
00000000
00000000
00000000
00000000
00000000
00000000
00000000
00000000
00000000
00000000
00000000
00000000
00000000
00000000
00000000
00000000
00000000
00000000
00000000
00000000
00000000
00000000
00000000
00000000
00000000
00000000
00000000
00000000
00000000
00000000
00000000
00000000
00000000
00000000
00000000
00000000
00000000
00000000
00000000
00000000
00000000
00000000
00000000
00000000
00000000
00000000
00000000
00000000
00000000
00000000
00000000
00000000
00000000
00000000
00000000
00000000
ADD36F76
807F54E9
801BFE98
E6C76E5D
BDFBFC1E
CB611E00
453F02D9
E0C521C0
A3AEA880
B3802B13
755CF843
25DC9A7F
7F839792
911B7FE4
3864A03E
74595933
012D04DD
230E31B4
F1D4FA7F
EA21DBEC
F30BF446
51CFF0E7
CB24279C
131DD7E6
029C0424
2B81DF16
FF0649CA
F4210755
41E9FF06
BABF0030
6E0868F3
0F36EB01
F21CA1C7
EED01914
1C215413
04069DE5
557CAD10
800143BC
1067467F
E1F8C98E
EEDB042A
C5083E06
30C9A530
F9F851BC
3C1F69FE
3503C24B
1EBD1135
D8D7EB4A
0DC5E7F6
1A0336D4
34EE2B0D
0A73EAEB
421424D9
36D0FD64
FFAF0D0E
DF54802E
D20BE4FA
09B7E4FD
F2DE7F01
1E48E7D9
DED1D100
E5CE1DE4
05346116
F445E240
00000141
00000130
000000E1
FFFFFD05
000000A7
FFFFFFDB
FFFFFF74
0000003E
0000029F
FFFFFE42
FFFFFFD1
FFFFFFE8
0000002A
FFFFFC45
FFFFFD67
FFFFFF84
00000000
00000000
00000000
00000000
00000000
00000000
00000000
00000000
00000000
00000000
00000000
00000000
00000000
00000000
00000000
00000000
00000000
00000000
00000000
00000000
00000000
00000000
00000000
00000000
00000000
00000000
00000000
00000000
00000000
00000000
00000000
00000000
00000000
00000000
00000000
00000000
00000000
00000000
00000000
00000000
00000000
00000000
00000000
00000000
00000000
00000000
00000000
00000000
00000000
00000000
00000000
00000000
00000000
00000000
00000000
00000000
00000000
00000000
00000000
00000000
00000000
00000000
00000000
00000000
00000000
00000000
00000000
00000000
00000000
00000000
00000000
00000000
00000000
00000000
00000000
00000000
00000000
00000000
00000000
00000000
00000000
00000000
00000000
00000000
00000000
00000000
00000000
00000000
00000000
00000000
00000000
00000000
00000000
00000000
00000000
00000000
00000000
00000000
00000000
00000000
00000000
00000000
00000000
00000000
00000000
00000000
00000000
00000000
00000000
00000000
00000000
00000000
00000000
00000000
00000000
00000000
00000000
00000000
00000000
00000000
00000000
00000000
00000000
00000000
00000000
00000000
00000000
00000000
00000000
00000000
00000000
00000000
00000000
00000000
00000000
00000000
00000000
00000000
00000000
00000000
00000000
00000000
00000000
00000000
00000000
00000000
00000000
00000000
00000000
00000000
00000000
00000000
00000000
00000000
00000000
00000000
00000000
00000000
00000000
00000000
00000000
00000000
00000000
00000000
00000000
00000000
00000000
00000000
00000000
00000000
00000000
00000000
00000000
00000000
00000000
00000000
3D533417
B7630B0F
1CC04110
809F3F94
ECF614E0
1C40486C
08ECECF5
0A20D916
DD862C39
5D3EFB80
547FC0B2
7FBA7F56
BCC9C331
5A80B605
4B117F28
364880A5
7422B9E8
E0092306
AB13D536
18F20CFE
0180C1E2
648035DE
D47FEFF1
642CE402
C92A07F4
E3FAFB0A
E68D01E3
43E64818
3A16CAF9
FB463806
DDA5084C
B04219E1
80ED347F
09E1943A
6578F180
7FDD4C25
E87FE950
80FD9A7F
01800E28
257FB8D3
4E0455FE
2717B980
0C80A3B6
7CBDCCCB
D06B3432
CD7F26FC
8BEEE9E7
A48B7F76
FF32CF56
8015B0F8
F2D6D6EE
83CE20F2
321C2ADF
C3FDFCD7
2EBABD68
5C072380
68978D3B
E12AF8FC
F3B30880
3A7FCBD2
02FB198A
F72F14CC
2C2AF9F6
3501C61D
000001EF
0000015B
FFFFFE70
00000104
00000194
0000024A
FFFFFFC2
FFFFFDF1
000005D8
FFFFFF6D
FFFFF8DD
000001A6
FFFFF9EC
00000551
00000184
FFFFFF9D
00000000
00000000
00000000
00000000
00000000
00000000
00000000
00000000
00000000
00000000
00000000
00000000
00000000
00000000
00000000
00000000
00000000
00000000
00000000
00000000
00000000
00000000
00000000
00000000
00000000
00000000
00000000
00000000
00000000
00000000
00000000
00000000
00000000
00000000
00000000
00000000
00000000
00000000
00000000
00000000
00000000
00000000
00000000
00000000
00000000
00000000
00000000
00000000
00000000
00000000
00000000
00000000
00000000
00000000
00000000
00000000
00000000
00000000
00000000
00000000
00000000
00000000
00000000
00000000
00000000
00000000
00000000
00000000
00000000
00000000
00000000
00000000
00000000
00000000
00000000
00000000
00000000
00000000
00000000
00000000
00000000
00000000
00000000
00000000
00000000
00000000
00000000
00000000
00000000
00000000
00000000
00000000
00000000
00000000
00000000
00000000
00000000
00000000
00000000
00000000
00000000
00000000
00000000
00000000
00000000
00000000
00000000
00000000
00000000
00000000
00000000
00000000
00000000
00000000
00000000
00000000
00000000
00000000
00000000
00000000
00000000
00000000
00000000
00000000
00000000
00000000
00000000
00000000
00000000
00000000
00000000
00000000
00000000
00000000
00000000
00000000
00000000
00000000
00000000
00000000
00000000
00000000
00000000
00000000
00000000
00000000
00000000
00000000
00000000
00000000
00000000
00000000
00000000
00000000
00000000
00000000
00000000
00000000
00000000
00000000
00000000
00000000
00000000
00000000
00000000
00000000
00000000
00000000
00000000
00000000
00000000
00000000
00000000
00000000
00000000
00000000
2121190D
5EB9128D
2B20E7EF
BCF7D83D
9B17136D
19F675E2
80E217FA
18A6C880
F86128ED
D7C80745
B1EDAC2D
24D80B1A
7F7FD27B
80482980
157574D7
3980100A
F49DD3BB
F43EE7D9
E9F8BD36
1DFCDF45
F5162C37
A3A8B5B5
1127B4B0
35D8EFF8
087F7DF4
DB1445B4
5F7F9A10
476B43DF
7F8F050E
BCAA3A45
7FB5F634
1DA2C1E7
D62512FF
9AE92626
000273D9
D72BBA1D
3E7FE85E
0545CB2A
1C9FB0CC
F501AC2E
647F4CD9
D8FB803C
80238983
CA691E98
E8AF2839
D5FE58F7
FA16A3C6
DA023014
2665CB07
53B23F0A
35DE7780
7F3A503E
5B45D5D2
F909117F
2B7FC7BA
B48D15AC
06F8231A
EBE2DF07
0C0A2260
C9F634D7
07F8BD47
CB8DFC37
EC3ADE22
3549E903
000002CB
FFFFFFA0
000002F8
00000388
FFFFFE90
FFFFF9FA
000000AB
FFFFFEF7
000000A1
FFFFFA44
0000011A
0000032A
FFFFF618
000003E9
FFFFFEBF
00000384
00000000
00000000
00000000
00000000
00000000
00000000
00000000
00000000
00000000
00000000
00000000
00000000
00000000
00000000
00000000
00000000
00000000
00000000
00000000
00000000
00000000
00000000
00000000
00000000
00000000
00000000
00000000
00000000
00000000
00000000
00000000
00000000
00000000
00000000
00000000
00000000
00000000
00000000
00000000
00000000
00000000
00000000
00000000
00000000
00000000
00000000
00000000
00000000
00000000
00000000
00000000
00000000
00000000
00000000
00000000
00000000
00000000
00000000
00000000
00000000
00000000
00000000
00000000
00000000
00000000
00000000
00000000
00000000
00000000
00000000
00000000
00000000
00000000
00000000
00000000
00000000
00000000
00000000
00000000
00000000
00000000
00000000
00000000
00000000
00000000
00000000
00000000
00000000
00000000
00000000
00000000
00000000
00000000
00000000
00000000
00000000
00000000
00000000
00000000
00000000
00000000
00000000
00000000
00000000
00000000
00000000
00000000
00000000
00000000
00000000
00000000
00000000
00000000
00000000
00000000
00000000
00000000
00000000
00000000
00000000
00000000
00000000
00000000
00000000
00000000
00000000
00000000
00000000
00000000
00000000
00000000
00000000
00000000
00000000
00000000
00000000
00000000
00000000
00000000
00000000
00000000
00000000
00000000
00000000
00000000
00000000
00000000
00000000
00000000
00000000
00000000
00000000
00000000
00000000
00000000
00000000
00000000
00000000
00000000
00000000
00000000
00000000
00000000
00000000
00000000
00000000
00000000
00000000
00000000
00000000
00000000
00000000
00000000
00000000
00000000
00000000
312164CC
CFFB45AB
D60934DD
7F12EF82
32B9CD25
CD1CEB3F
EDD562E4
120ABA0B
CA778C18
7FD7DEC1
7FC763E0
01E724FC
1CDBE044
B44526F1
B10C6EAB
E705002D
6FA55C2E
7621BDED
F1C441AD
D344BFEC
8008F0A1
12D70E7F
8058FEEF
EB9B5129
35AE6820
FB4AE17F
01E340B2
C5AF94EF
0A37EDD4
E83260EE
A8E82ABC
E142DFEA
B5D62E88
17251217
221B2339
D40CC129
800627FC
BA7F78EC
DB5FBA45
FB031CC4
A6DBF013
D6EEFDA2
115DF3F8
80546431
1080F4E9
5612D0F4
FC2723F6
FAEBED61
23CA3DBB
3FF8360A
81D02B3C
CE3AB9F2
80DD9628
D27FE83C
AA3FEDAB
7F0F80BE
F0CB32FB
0D045934
12362E96
0F04FEC7
FB24F506
2AE15044
AFFF10FE
DEBDC266
B80128FC
E20506E8
1CE91326
73C4A94F
F30029FE
F866E2ED
050AFB9D
5FDB1208
08B5400C
3DD31232
C90EF4F6
DD33F47F
BE91EEF0
4DF2031B
FAEC52F4
561E0D0C
86807F90
60E74801
3DFF26E0
2807B7F5
9CD9B45E
4F41D22C
36F6ED13
5DBB1697
DF1DEBE3
BD0ED342
05B7202A
14F79D2C
1943AF17
05F73100
9CDA1500
02170519
5D02FBD6
F26E2FC8
B3D9E6F8
ED3EFB20
27E2F52C
E928F70C
E0476AAC
4316041F
0780742E
03F3E9EB
3BBF7CAE
A29FE53B
DD0B1BFA
28001029
EC322680
0E39FFE7
B528ED5A
ED20D36D
F9E07F99
05F205D2
1C3C8AA8
C402E4DF
7F807F41
7F7F9D49
F6B22634
8E7F1A43
FFBCEF69
05F0FD02
9DF34B0E
F428213D
FE0E0945
031600DD
2319F7D7
39BC7307
B8F3DCE7
380806F2
CECBDB13
011AECEE
28137FC4
EB13DAE6
297F801F
61300469
8DD26480
067FA8A4
D8D5FFDC
176AE606
7F3412A3
8960EDD8
03021FB6
46FD0FEA
2BE208DF
117FDD0A
CC31F1FD
ED1CFAEF
188E0C3F
440BF00D
CDD919BC
E6F2FAFB
BB6FE1DE
EB3BFB6A
33EC03F9
FF7F2FD6
E8F72AE0
1EE7EEF8
1FF39010
E5FC0810
1CCD522E
09F1D61B
801462EE
F3C67F01
38A0E318
77C8DB43
0302F1F0
7D010E4D
16EEDEC8
21C40E29
A69ED878
2805986C
0AF466BF
0F00F147
332FF263
97DFDAFD
A3F9F836
116F2C75
E30C01BF
2F04F6EF
1AF91BDE
302B8018
0CE8C808
63E11907
D8DC610E
074C8236
8030330E
CD96AD7F
DD2B1133
9E0D4780
A2F3E406
5CFD0F2C
40E013D0
3837ACD0
F60AB701
63E83FC9
1D0EFD0B
0EE61910
5105BE1C
7F7F959E
FDC10F4B
2FDB897F
DCD61E8F
2A443319
B5F731AE
E7FBF731
01391AF4
0F7008C3
2BE425E3
D636CC28
C5BC13E8
D23234EC
595D11CF
F9D70621
1C58DCD6
0F1C4830
02D52180
FAFBE500
E0EA89D1
4E111F38
D81F07F5
FB082DEA
EE6412F0
B33843DF
E8FE3FBD
FDBAD827
B8E7EC1A
CBDF30EA
E9511802
1CECEE7F
FEBE11EF
5D007F24
ECD1F69F
E8FDCE28
A5A2F006
FD3A58EF
0431E8E9
24E3F70E
1BC81F24
F1F416F9
D9CE023A
F4438008
F07F805E
F1312C9C
0B7FF5EC
BE364062
7FEFE922
3D0341AC
B8803E80
DC55F07F
F8B9FBDC
1E0414F2
1DE868E6
EC648B4F
E4FE112B
B81C2900
24DB49ED
8352F437
D4EDA0DE
E66BEE51
043426E8
49EC80FB
BAEB01FB
61251428
5C1BDBB9
0AF13F06
CCBDB21E
1E1E1B4B
5C07F102
CEEADF3F
B733DFD6
0B101C21
2AE37FBB
F4F3E862
024DA4F6
D3061EE4
48B65CD0
FD1AB20D
FCF9B8E5
1C4952D5
EA08F5D0
F65DDB71
DF55AA80
7FF54526
E5FA9F7F
F6A93560
80962802
512F2680
13711452
0FB80756
CEF4BC15
01FCE417
210C7FC2
2C39E1FE
3B1F36C9
D822FCCE
F4ED5293
1E63C606
D50A4301
FD270315
E904D9EE
0B7FCF0F
3ED296B0
6FFD9A5E
C7637FC3
F11C1EA7
152FBAE3
385913F0
1DC75DA3
1B00A101
7FCE80B9
2BD47500
F1311518
A817E850
E702E4B0
F5296CE9
E3EEE0E8
4717CAFA
FC80B4D0
7FC5207F
63A0EEFB
8024807F
0FF9CCE0
311D03CA
319B53F3
DA700836
01F199A9
FA1550B5
3B017007
F84ACE35
43807F16
30FE0842
28C57FCB
FA4F801E
55167F1B
F17FE617
DF94A69C
287F80A7
FDD1BC80
13E77FF5
FB074633
0AF8DF31
F5CDDEEC
2E0FC9F4
062FFFE7
7F038851
1122D895
100429F5
1DF442D9
22F9DCF1
1110D716
58003694
8032BFB1
7FF003E9
946165BE
2560C143
7F80413F
0B64AC04
44CD25D0
02E640E0
FFF00517
D5E6ED7F
EAF83496
80327932
7F0EBE78
F7078DD3
F3EBF3ED
6CD7F310
D7292BD1
E048FFD8
BC9BFCBF
4AEFF802
2148F5FD
F0181548
D81BFDCF
D829CE40
DB0B3141
19129B09
B0CFFBBC
0F212F1F
02F4C8D3
1C6F121B
A5A3DFBB
2CE9E605
1D5600CE
012EEE60
EFE734D4
D97FE51C
8CF34B26
0DFAC70E
13ED2290
E67CCE7F
ED1CF006
E911B8E8
23AF07AC
7F8F7F62
1483C422
3DF0B021
B33AC7CF
627F109C
4037FD02
E07FCE80
E1201E9D
6B170505
2BCA2FCE
D47BC420
2B35FF0B
F3E5F10E
EBA1CA09
F8FE232C
09D303FE
15CBF7F4
FDDB17E2
1263D2D9
804D31DD
20C07FC3
F9307F38
4E9C807F
C15E80CC
007FC82B
541D6B80
BC260FF1
56CF3189
6B3FDD43
E1E843C5
08E01433
121061C0
EF51EF02
02303DB1
CF2AE942
B9EAFAF9
E7FA395D
194350DF
0AE19DD1
E97979EC
381FCA04
B2977FF5
80FE287F
EDEDA5C5
26173C59
1B2C38B9
DDC40153
06B50AF0
CF16F6F6
B0E9362F
B57F0434
D480802C
9F59266F
9F317F12
CE7FD467
C47FDC80
00ECC908
D2033E72
33EE21EA
E5649E68
081065B2
EC8E9EAC
6807017F
F7ADD5C1
3425B6E8
EF3CF8E3
EC68FF40
1A808045
0D15FCD1
BFC77362
C2F73B42
91851DB0
CF3123FA
C6292D2A
173AC60B
B1F74580
5D71F528
8643BDA6
137F104E
F62444CB
BBF15CDC
0421DB19
00EDE035
0EBE063A
2DEE36F3
1C1613A5
F4DF04EA
E4CCC582
22130DD8
B32B1715
3141054C
D72BE7E6
D9C0FDA1
F50E69F8
12032B14
21F51EAC
F0180E06
EAFFD3F7
B07FDC35
6610D934
007CCC1B
7F8008D9
3CA1802D
44E9F0DC
1BF861D7
DFEA2B0C
FD2DA93F
14F1F8B7
F0D61771
C7373AEC
09E4FE00
1741FEC8
151D0D32
EDCCD99E
E8481901
FFFFED73
FFFFF990
FFFFF83B
FFFFFDB1
FFFFF5DA
FFFFF9F0
FFFFFD63
FFFFF833
FFFFFD38
FFFFEFB9
FFFFFC4C
FFFFFD85
FFFFFCA4
FFFFF585
FFFFFB7A
FFFFF7DB
FFFFFB31
FFFFFD04
FFFFFA64
FFFFFCD9
FFFFF5AC
FFFFF625
FFFFFA37
FFFFFD32
FFFFFC10
FFFFF9F0
FFFFF8BB
FFFFFA58
FFFFEF7E
FFFFFC16
FFFFFA6B
FFFFFB03
FFFFFA1C
FFFFF8CC
FFFFF9C0
FFFFFAC0
FFFFFA69
FFFFFA4A
FFFFFCAC
FFFFF6BE
FFFFF808
FFFFF085
FFFFFA17
FFFFFE96
FFFFF614
FFFFF8B0
FFFFFE8E
FFFFF970
FFFFFA63
FFFFF9FD
FFFFF2F5
FFFFFA35
FFFFF7B9
FFFFF7B2
FFFFFAD1
FFFFFC77
FFFFFE24
FFFFFB2F
FFFFF920
FFFFFBC7
FFFFFCB0
FFFFF3AE
FFFFF4FE
FFFFFDB6
FFFFFB41
FFFFFB25
FFFFF99A
FFFFFAD8
FFFFFE5B
FFFFF7A2
FFFFFC76
FFFFF2AD
FFFFED59
FFFFF998
FFFFFB49
FFFFF854
FFFFF018
FFFFF9D5
FFFFF47E
FFFFF933
FFFFF388
FFFFFD60
FFFFFAB8
FFFFFC48
FFFFF6D0
FFFFFD8E
FFFFFC59
FFFFFB11
FFFFF490
FFFFF4F8
FFFFFA1B
FFFFF543
FFFFF907
FFFFFA00
FFFFFE9A
FFFFFD15
FFFFFA14
FFFFF8CB
FFFFFA07
FFFFF408
FFFFFB84
FFFFFAE4
FFFFFB4B
FFFFFDF7
FFFFF0BB
FFFFEFE6
FFFFFACE
FFFFF619
FFFFFD4F
FFFFF95E
FFFFF729
FFFFF80C
FFFFFCEB
FFFFF474
FFFFF563
FFFFFF5C
FFFFF4A5
FFFFFC72
FFFFFC10
FFFFFACA
FFFFFBA5
FFFFFA04
FFFFFD36
FFFFFDA4
FFFFFBE4
FFFFF6C5
FFFFF596
FFFFFE65
00000000
00000000
00000000
00000000
00000000
00000000
00000000
00000000
00000000
00000000
00000000
00000000
00000000
00000000
00000000
00000000
00000000
00000000
00000000
00000000
00000000
00000000
00000000
00000000
00000000
00000000
00000000
00000000
00000000
00000000
00000000
00000000
00000000
00000000
00000000
00000000
00000000
00000000
00000000
00000000
00000000
00000000
00000000
00000000
00000000
00000000
00000000
00000000
00000000
00000000
00000000
00000000
00000000
00000000
00000000
00000000
00000000
00000000
00000000
00000000
00000000
00000000
00000000
00000000
00000000
00000000
00000000
00000000
00000000
00000000
00000000
00000000
00000000
00000000
00000000
00000000
00000000
00000000
00000000
00000000
00000000
00000000
00000000
00000000
00000000
00000000
00000000
00000000
00000000
00000000
00000000
00000000
00000000
00000000
00000000
00000000
00000000
00000000
00000000
00000000
00000000
00000000
00000000
00000000
00000000
00000000
00000000
00000000
00000000
00000000
00000000
00000000
00000000
00000000
00000000
00000000
00000000
00000000
00000000
00000000
00000000
00000000
00000000
00000000
00000000
00000000
00000000
00000000
E908E10F
F9EDE422
12100FF0
C504E01F
F416E7CD
090C070C
1617FDF3
E0EECC05
09C10B32
FBFEF1F0
081F05CE
0E0EFF25
F8D20905
C8071904
EDE00C1A
90130804
16041DE2
0D3480F0
01D0EA02
2611F3F2
012AE9D3
1DDD20CD
F411C303
EEFD04E7
2510F4F4
141AE5FD
FF2B0CEF
17100001
F207FEFA
EE112DD8
16F8130B
05FDF012
01E637FC
EF191607
2604D808
8708D5FA
07E9FA8F
131CEE16
0DF40BF5
08EE80F8
F121BD0C
CA2EE1D5
1504ED09
D049AED8
EAAEFC04
0B1605C1
F7DD199C
DF000326
1EFEAFD0
0203D1EA
0932D4FF
01130103
3113B5A7
1ACBF708
F61DF013
11311FFE
FC2C002B
EB03DBE2
ABCA23D1
F8190BBA
121311FA
170E3C0C
06E61E0A
1EA1C400
DD14130B
FB14F014
18EAF710
0C25F239
05151003
DAD50901
05FF1E12
D302E10F
F1E33502
1B180B00
0EE60C1C
DF0DDB08
181816E6
D4DF03E8
1B37180A
C7F6151B
F399D3AD
FCF8E0D0
BA0C2516
2EF6DFDD
1A9CF018
0EDE02ED
ECF2FEF6
B7E60105
16FAFC1E
0222DD0D
27CE01FD
EEE0091A
1AC504EB
1DC2270F
DF06D0E2
F6DD14F9
3AFBFD3B
1816ED09
16C20C24
2108FE1F
0534ED15
80FFFFDF
80F92821
0608CF00
06BAFD9B
DA3617F0
02F205F0
F7A9AA1C
17E54414
D60F07E9
0E431D14
92C70F18
1FF7EB50
EB15E769
550836FE
0CE0F4DF
1E800A2B
BA108311
24D9FFF7
C830400C
AC670043
EFE0DE0E
58C3FDFD
1AD7AB0E
2E1E0FF3
1C9AF41B
28369FE0
802AE200
071F550C
0996EBBB
1A3743E6
FB6BF30B
0CFA08FA
E30B9B23
33502DDE
FDE82AF3
21EA06F1
BFBCE200
CBE63A2B
FDE22CE9
2E071BA1
DDB83807
EA80F8BA
E6CA0945
28EB2E05
16191F12
36CCE92C
15F96638
E42420C8
492DF89C
F9F2EF33
031FE91B
EB8023F1
FCEBF327
DF1325DF
3F2311BF
16FFF125
1522FF13
05143D2C
DFBB3702
4C111736
2129151E
2DD8222C
3AFEC95B
E51D1BF7
BE3E03D9
D0121406
080505F3
0BDDD191
FE7826A5
4012ED28
0BC8D3F6
DF452AF9
141B0FE5
EE3C3C0C
EDC3F70B
DF12800A
C3112C27
1CFE41E5
3AD30B1C
0483B4FD
C80C8023
2FE746FB
01FE0A75
E80FC051
FDEEB9F2
44B8CFFB
25B6F195
6DC91CC3
20F7B627
DFF7A134
1104400F
1809F918
B1E8BAE1
D2EADA33
122914E1
F2F81C1F
FC010C18
FCD707F2
ED0C04EC
B7D5EFE6
281B1B2B
CFB31009
EEDF170E
2915FB25
28C5F805
FAFA0200
DEF1B814
E7EC121D
ABCCF3E9
F7F2E7D2
F4BBEF14
E5151F17
E313D202
068111CA
21F6CBF5
039909FB
1B0526D7
ED36D80D
3727040D
BCFAE90A
EFE4F3E9
21B4C918
F1FCC80B
FBD9FFF9
16050FEB
DE110703
05D8E6F7
23EBE025
10D51001
DD00F327
190B17FD
FC1808FB
E9EBD512
F5070D00
121B2C05
4B1ADDEF
110DA3D0
B2051FFE
16D50DF8
DB0A3507
EBF61C38
0D03FC19
0D0226F4
F3FDFBF4
0F1F1715
FC0DD2F0
22DAFAFB
0306D1DE
F50BFED5
2709052F
0011EF1E
F2F1E419
0408BF13
19F7E4F0
0FF2EDC7
F8E5CF33
4AFBFDFA
1518E537
04F017C5
A2ACF325
DFC7F7C5
E4024048
E8D98F9F
15E53AFD
4D133107
D5002CCE
E5B8BEFA
AD0F062B
11242642
07D3E5BD
B2FBF7EF
2D1A9514
3535832A
3C283813
D1378D0F
800B260B
C137D832
BF453B10
FC801DE1
0E0152FA
C7E31BF3
04F1A04F
D85BB756
3E24003C
B4EEFC00
59150307
061A2037
39D929E9
DF27F5E9
0901EEDD
0B04A2EB
1905DF1D
040FC432
FF1F0DD9
F7F2D618
01DE2C13
E50FF1D2
E91D19FE
C21FDBF2
FAF91980
E413FD05
00FC0F24
FEE408C7
B7EE1009
FC2AE61A
08AFE3FD
0100DBEF
093BD4CF
09801AFC
19E6F413
21029EBC
271BA4C6
94BE9501
39380E34
36E3D10A
0EEAFD28
160E0EF9
07193319
EEF6E904
10E309FB
14FAF501
06E8FB02
11E2CC0D
1E04E1FC
0E120DFD
09250DF6
E915EDEC
ED180304
FF9EECE9
0805F012
E4190B17
B515F903
EC18E7D9
B303DC1C
FFF4BA15
1A21D1BF
EFD5DDF6
DE331A2A
2DBDC5E2
FDFDDE25
36E2E903
14DFF2C3
C015F4E5
1029FFD5
0010C0FF
F51EF1F8
F5F5D2FF
E4D90DE8
F3DEDCFA
DEC1C702
02F3F40B
5B3550F3
1307CA08
F4131B0D
F4DD804D
E584B9BF
F6D5C038
1FDC3506
50EFDDD9
2025F7F8
6DF5B9E4
1A80FECD
FC06F72F
97FAD632
02098026
8F06BE80
B1E6C406
A6138004
D1AF02E1
B4462497
E78B4540
05BA05BB
03802DB3
110231EC
BD090445
36057BFA
DFE15E95
EAD31D43
618036FE
0D861519
B4E5260D
800806F7
FCEBF228
31DD1FE1
4AFC19EC
0BF434A4
C239E4EB
0ECECC17
070AF51E
D90F34E4
F218370A
203314F5
E4F932F2
21293AF2
1BCF1700
67F712E8
1733D295
CF361CF8
0FD5B439
0653CAB2
25E2254D
FECB27A9
4EF23521
E38009E1
003D9E15
55EE17CB
F508FFFD
1CD7D221
2FE1D4D7
7FCE430A
4383C9D0
F8FA592E
4BFC8034
5103F32B
CA0B27EE
2B0E2100
BF151F07
BAF5FD51
21D7B159
341146CF
2E31F51F
2E3927F1
2F178F13
0B0DF017
F3F4F6E2
FDFEBD29
0F2A9CEB
CE10C43B
DAA33B31
CB489610
C4F2891F
240B8009
B0ECC0EE
B51D0FB8
13E4A1CD
F6F08016
2011240B
1BF33311
B03EB0F9
220F3698
2410AC17
E0E8FFF3
1719E1BB
B7B6B786
A13D64FA
A180562B
07B722FF
9432E2D0
80DBA5CF
DCE7DE3F
3FE10856
2C5D1D02
11152C33
CFBAA1E5
BA951F43
8033101B
C6F901EB
1A19D32D
810E2124
803D14F3
1662E9DA
17061BC0
10F5BA99
14F11392
04891C08
EF923B1D
B02AEEEB
D21FF9F7
1BEA4EAA
2445E8CE
D7DEE01E
21ADAA02
130FD5C4
80E1222E
5DA3EF0D
CDB2F828
21242E19
2303121B
DAA4E44B
D2CC270E
D5F6BCCA
D6320C09
220E1322
E0F91403
DBF7DF0A
08F3F20C
BF0038E6
C7E641C1
D8EFE218
CBF3C31A
1B044148
FDF802D3
A21D3FA4
D4D40C06
FCC71127
57BA0C0D
05410D7F
4ACC0069
C90CB58A
F1F01507
B81A0F22
B90026FF
B31FEB04
1E22B8D1
3008E211
FEF3F2C8
3970E606
DF17CA42
80A19D17
FCFB1821
B43817E7
00000017
FFFFFFBA
00000044
FFFFFFFF
00000047
0000004A
FFFFFFE8
0000004F
FFFFFF90
FFFFFFC7
FFFFFFEE
FFFFFF43
00000014
00000083
0000004C
0000008B
00000000
00000000
00000000
00000000
00000000
00000000
00000000
00000000
00000000
00000000
00000000
00000000
00000000
00000000
00000000
00000000
00000000
00000000
00000000
00000000
00000000
00000000
00000000
00000000
00000000
00000000
00000000
00000000
00000000
00000000
00000000
00000000
00000000
00000000
00000000
00000000
00000000
00000000
00000000
00000000
00000000
00000000
00000000
00000000
00000000
00000000
00000000
00000000
00000000
00000000
00000000
00000000
00000000
00000000
00000000
00000000
00000000
00000000
00000000
00000000
00000000
00000000
00000000
00000000
00000000
00000000
00000000
00000000
00000000
00000000
00000000
00000000
00000000
00000000
00000000
00000000
00000000
00000000
00000000
00000000
00000000
00000000
00000000
00000000
00000000
00000000
00000000
00000000
00000000
00000000
00000000
00000000
00000000
00000000
00000000
00000000
00000000
00000000
00000000
00000000
00000000
00000000
00000000
00000000
00000000
00000000
00000000
00000000
00000000
00000000
00000000
00000000
00000000
00000000
00000000
00000000
00000000
00000000
00000000
00000000
00000000
00000000
00000000
00000000
00000000
00000000
00000000
00000000
00000000
00000000
00000000
00000000
00000000
00000000
00000000
00000000
00000000
00000000
00000000
00000000
00000000
00000000
00000000
00000000
00000000
00000000
00000000
00000000
00000000
00000000
00000000
00000000
00000000
00000000
00000000
00000000
00000000
00000000
00000000
00000000
00000000
00000000
00000000
00000000
00000000
00000000
00000000
00000000
00000000
00000000
00000000
00000000
00000000
00000000
00000000
00000000
00000000
00000000
00000000
00000000
00000000
00000000
00000000
00000000
00000000
00000000
00000000
00000000
00000000
00000000
00000000
00000000
00000000
00000000
00000000
00000000
00000000
00000000
00000000
00000000
00000000
00000000
00000000
00000000
00000000
00000000
00000000
00000000
00000000
00000000
00000000
00000000
00000000
00000000
00000000
00000000
00000000
00000000
00000000
00000000
00000000
00000000
00000000
00000000
00000000
00000000
00000000
00000000
00000000
00000000
00000000
00000000
00000000
00000000
00000000
00000000
00000000
00000000
00000000
00000000
0000A87F
00000000
00000000
00000000
00003E7F
00000000
00000000
00000000
00000000
00000000
00000000
00000000
00000000
00000000
00000000
00000000
00000000
00000000
00000000
00000000
00000000
00000000
00000000
00000000
00000000
00000000
00000000
00000000
00000000
00000000
00000000
00000000
FE7F80D8
80803CFD
4A24807F
A1B87FC9
A4D8611F
C97FAD2F
11203EF9
F3F3AFE5
1CB1FB96
7FF53306
80807F80
4728807F
B3F226A9
380B1680
2314031F
F57E08D7
BA0DDD80
80A9BB41
801F6480
D27F06DA
00000000
00000000
00000000
00000000
00000000
00000000
00000000
00000000
00000000
00000000
00000000
00000000
FFFFFF21
000001C5
0000001A
FFFFFF64
FFFFF168
00000000
00000000
00000000
00000000
00000000
00000000
00000000
00000000
00000000
00000000
00000000
00000000
00000000
00000000
00000000
00000000
00000000
00000000
00000000
00000000
00000000
00000000
00000000
00000000
00000000
00000000
00000000
0000FD7F
00000000
00000000
00000000
0000BA80
00000000
00000000
00000000
00001A80
00000000
00000000
00000000
00008080
00000000
00000000
00000000
00007F40
00000000
00000000
00000000
00000000
00000000
00000000
00000000
00000000
00000000
00000000
00000000
00000000
00000000
00000000
00000000
